<?xml version="1.0"?>
<!--
    (c) Copyright 2000-2018 CERN for the benefit of the LHCb Collaboration

    This software is distributed under the terms of the GNU General Public
    Licence version 3 (GPL Version 3), copied verbatim in the file "COPYING".

    In applying this licence, CERN does not waive the privileges and immunities
    granted to it by virtue of its status as an Intergovernmental Organization
    or submit itself to any jurisdiction.
-->
<MethodSetup Method="MLP::Muon_Upstream_TMVA">
  <GeneralInfo>
    <Info name="TMVA Release" value="4.2.1 [262657]"/>
    <Info name="ROOT Release" value="6.12/06 [396294]"/>
    <Info name="Creator" value="jonesc"/>
    <Info name="Date" value="Fri Jun 15 17:42:14 2018"/>
    <Info name="Host" value="Linux lcgapp-slc6-x86-64-2.cern.ch 2.6.32-696.18.7.el6.x86_64 #1 SMP Thu Jan 4 13:27:39 CET 2018 x86_64 x86_64 x86_64 GNU/Linux"/>
    <Info name="Dir" value="/var/pcfst/r01/lhcb/jonesc/ANNPID/results/UpgradeSim09cUp02RecoUp01/TrainMixture/TrainPhysTks-EvalPhysTks-NoReweight/GhostAccFrac0.05/PrAccF1.0/KaAccF1.0/PiAccF1.0/TMVA-Upgrade-Sim09cUp02RecoUp01/MLP/Norm/L1SF1.6/L2SF0.0/BP/NCycles750/CE/sigmoid/CVTest15/CVImp1e-16/NotUseRegulator/Muon/Upstream"/>
    <Info name="Training events" value="1833510"/>
    <Info name="TrainingTime" value="3.33295500e+04"/>
    <Info name="AnalysisType" value="Classification"/>
  </GeneralInfo>
  <Options>
    <Option name="NCycles" modified="Yes">750</Option>
    <Option name="HiddenLayers" modified="Yes">28</Option>
    <Option name="NeuronType" modified="Yes">sigmoid</Option>
    <Option name="RandomSeed" modified="No">1</Option>
    <Option name="EstimatorType" modified="Yes">CE</Option>
    <Option name="NeuronInputType" modified="No">sum</Option>
    <Option name="V" modified="Yes">True</Option>
    <Option name="VerbosityLevel" modified="No">Verbose</Option>
    <Option name="VarTransform" modified="Yes">Norm</Option>
    <Option name="H" modified="Yes">True</Option>
    <Option name="CreateMVAPdfs" modified="No">False</Option>
    <Option name="IgnoreNegWeightsInTraining" modified="No">False</Option>
    <Option name="TrainingMethod" modified="Yes">BP</Option>
    <Option name="LearningRate" modified="No">2.000000e-02</Option>
    <Option name="DecayRate" modified="No">1.000000e-02</Option>
    <Option name="TestRate" modified="No">10</Option>
    <Option name="EpochMonitoring" modified="Yes">True</Option>
    <Option name="Sampling" modified="No">1.000000e+00</Option>
    <Option name="SamplingEpoch" modified="No">1.000000e+00</Option>
    <Option name="SamplingImportance" modified="No">1.000000e+00</Option>
    <Option name="SamplingTraining" modified="No">True</Option>
    <Option name="SamplingTesting" modified="No">False</Option>
    <Option name="ResetStep" modified="No">50</Option>
    <Option name="Tau" modified="No">3.000000e+00</Option>
    <Option name="BPMode" modified="No">sequential</Option>
    <Option name="BatchSize" modified="No">-1</Option>
    <Option name="ConvergenceImprove" modified="Yes">1.000000e-16</Option>
    <Option name="ConvergenceTests" modified="Yes">15</Option>
    <Option name="UseRegulator" modified="Yes">False</Option>
    <Option name="UpdateLimit" modified="No">10000</Option>
    <Option name="CalculateErrors" modified="No">False</Option>
    <Option name="WeightRange" modified="No">1.000000e+00</Option>
  </Options>
  <Variables NVar="18">
    <Variable VarIndex="0" Expression="TrackP" Label="TrackP" Title="TrackP" Unit="" Internal="TrackP" Type="F" Min="2.93339996e+02" Max="4.98100250e+06"/>
    <Variable VarIndex="1" Expression="TrackPt" Label="TrackPt" Title="TrackPt" Unit="" Internal="TrackPt" Type="F" Min="2.14711895e+01" Max="9.03093438e+05"/>
    <Variable VarIndex="2" Expression="TrackChi2PerDof" Label="TrackChi2PerDof" Title="TrackChi2PerDof" Unit="" Internal="TrackChi2PerDof" Type="F" Min="3.52147326e-05" Max="2.99987316e+00"/>
    <Variable VarIndex="3" Expression="TrackNumDof" Label="TrackNumDof" Title="TrackNumDof" Unit="" Internal="TrackNumDof" Type="I" Min="2.00000000e+00" Max="4.30000000e+01"/>
    <Variable VarIndex="4" Expression="TrackGhostProbability" Label="TrackGhostProbability" Title="TrackGhostProbability" Unit="" Internal="TrackGhostProbability" Type="F" Min="5.92231750e-04" Max="9.99982297e-01"/>
    <Variable VarIndex="5" Expression="TrackFitVeloChi2" Label="TrackFitVeloChi2" Title="TrackFitVeloChi2" Unit="" Internal="TrackFitVeloChi2" Type="F" Min="5.02757336e-10" Max="8.95414124e+01"/>
    <Variable VarIndex="6" Expression="TrackFitVeloNDoF" Label="TrackFitVeloNDoF" Title="TrackFitVeloNDoF" Unit="" Internal="TrackFitVeloNDoF" Type="I" Min="-1.00000000e+00" Max="3.90000000e+01"/>
    <Variable VarIndex="7" Expression="RichUsedR1Gas" Label="RichUsedR1Gas" Title="RichUsedR1Gas" Unit="" Internal="RichUsedR1Gas" Type="I" Min="0.00000000e+00" Max="1.00000000e+00"/>
    <Variable VarIndex="8" Expression="RichAboveMuThres" Label="RichAboveMuThres" Title="RichAboveMuThres" Unit="" Internal="RichAboveMuThres" Type="I" Min="0.00000000e+00" Max="1.00000000e+00"/>
    <Variable VarIndex="9" Expression="RichAboveKaThres" Label="RichAboveKaThres" Title="RichAboveKaThres" Unit="" Internal="RichAboveKaThres" Type="I" Min="0.00000000e+00" Max="1.00000000e+00"/>
    <Variable VarIndex="10" Expression="RichDLLe" Label="RichDLLe" Title="RichDLLe" Unit="" Internal="RichDLLe" Type="F" Min="-9.99000000e+02" Max="1.14575203e+02"/>
    <Variable VarIndex="11" Expression="RichDLLmu" Label="RichDLLmu" Title="RichDLLmu" Unit="" Internal="RichDLLmu" Type="F" Min="-9.99000000e+02" Max="6.48178024e+01"/>
    <Variable VarIndex="12" Expression="RichDLLk" Label="RichDLLk" Title="RichDLLk" Unit="" Internal="RichDLLk" Type="F" Min="-9.99000000e+02" Max="8.06046982e+01"/>
    <Variable VarIndex="13" Expression="RichDLLp" Label="RichDLLp" Title="RichDLLp" Unit="" Internal="RichDLLp" Type="F" Min="-9.99000000e+02" Max="7.54424973e+01"/>
    <Variable VarIndex="14" Expression="RichDLLd" Label="RichDLLd" Title="RichDLLd" Unit="" Internal="RichDLLd" Type="F" Min="-9.99000000e+02" Max="6.10418015e+01"/>
    <Variable VarIndex="15" Expression="RichDLLbt" Label="RichDLLbt" Title="RichDLLbt" Unit="" Internal="RichDLLbt" Type="F" Min="-9.99000000e+02" Max="4.54701996e+01"/>
    <Variable VarIndex="16" Expression="InAccBrem" Label="InAccBrem" Title="InAccBrem" Unit="" Internal="InAccBrem" Type="I" Min="0.00000000e+00" Max="1.00000000e+00"/>
    <Variable VarIndex="17" Expression="BremPIDe" Label="BremPIDe" Title="BremPIDe" Unit="" Internal="BremPIDe" Type="F" Min="-9.99000000e+02" Max="4.79148388e+00"/>
  </Variables>
  <Spectators NSpec="0"/>
  <Classes NClass="2">
    <Class Name="Signal" Index="0"/>
    <Class Name="Background" Index="1"/>
  </Classes>
  <Transformations NTransformations="1">
    <Transform Name="Normalize">
      <Selection>
        <Input NInputs="18">
          <Input Type="Variable" Label="TrackP" Expression="TrackP"/>
          <Input Type="Variable" Label="TrackPt" Expression="TrackPt"/>
          <Input Type="Variable" Label="TrackChi2PerDof" Expression="TrackChi2PerDof"/>
          <Input Type="Variable" Label="TrackNumDof" Expression="TrackNumDof"/>
          <Input Type="Variable" Label="TrackGhostProbability" Expression="TrackGhostProbability"/>
          <Input Type="Variable" Label="TrackFitVeloChi2" Expression="TrackFitVeloChi2"/>
          <Input Type="Variable" Label="TrackFitVeloNDoF" Expression="TrackFitVeloNDoF"/>
          <Input Type="Variable" Label="RichUsedR1Gas" Expression="RichUsedR1Gas"/>
          <Input Type="Variable" Label="RichAboveMuThres" Expression="RichAboveMuThres"/>
          <Input Type="Variable" Label="RichAboveKaThres" Expression="RichAboveKaThres"/>
          <Input Type="Variable" Label="RichDLLe" Expression="RichDLLe"/>
          <Input Type="Variable" Label="RichDLLmu" Expression="RichDLLmu"/>
          <Input Type="Variable" Label="RichDLLk" Expression="RichDLLk"/>
          <Input Type="Variable" Label="RichDLLp" Expression="RichDLLp"/>
          <Input Type="Variable" Label="RichDLLd" Expression="RichDLLd"/>
          <Input Type="Variable" Label="RichDLLbt" Expression="RichDLLbt"/>
          <Input Type="Variable" Label="InAccBrem" Expression="InAccBrem"/>
          <Input Type="Variable" Label="BremPIDe" Expression="BremPIDe"/>
        </Input>
        <Output NOutputs="18">
          <Output Type="Variable" Label="TrackP" Expression="TrackP"/>
          <Output Type="Variable" Label="TrackPt" Expression="TrackPt"/>
          <Output Type="Variable" Label="TrackChi2PerDof" Expression="TrackChi2PerDof"/>
          <Output Type="Variable" Label="TrackNumDof" Expression="TrackNumDof"/>
          <Output Type="Variable" Label="TrackGhostProbability" Expression="TrackGhostProbability"/>
          <Output Type="Variable" Label="TrackFitVeloChi2" Expression="TrackFitVeloChi2"/>
          <Output Type="Variable" Label="TrackFitVeloNDoF" Expression="TrackFitVeloNDoF"/>
          <Output Type="Variable" Label="RichUsedR1Gas" Expression="RichUsedR1Gas"/>
          <Output Type="Variable" Label="RichAboveMuThres" Expression="RichAboveMuThres"/>
          <Output Type="Variable" Label="RichAboveKaThres" Expression="RichAboveKaThres"/>
          <Output Type="Variable" Label="RichDLLe" Expression="RichDLLe"/>
          <Output Type="Variable" Label="RichDLLmu" Expression="RichDLLmu"/>
          <Output Type="Variable" Label="RichDLLk" Expression="RichDLLk"/>
          <Output Type="Variable" Label="RichDLLp" Expression="RichDLLp"/>
          <Output Type="Variable" Label="RichDLLd" Expression="RichDLLd"/>
          <Output Type="Variable" Label="RichDLLbt" Expression="RichDLLbt"/>
          <Output Type="Variable" Label="InAccBrem" Expression="InAccBrem"/>
          <Output Type="Variable" Label="BremPIDe" Expression="BremPIDe"/>
        </Output>
      </Selection>
      <Class ClassIndex="0">
        <Ranges>
          <Range Index="0" Min="4.5332000732421875e+02" Max="4.8986380000000000e+06"/>
          <Range Index="1" Min="4.2003940582275391e+01" Max="6.5352918750000000e+05"/>
          <Range Index="2" Min="3.8708481937646866e-02" Max="2.9956245422363281e+00"/>
          <Range Index="3" Min="2.0000000000000000e+00" Max="3.9000000000000000e+01"/>
          <Range Index="4" Min="1.0750889778137207e-03" Max="9.9067956209182739e-01"/>
          <Range Index="5" Min="4.3250520320725627e-07" Max="6.0216297149658203e+01"/>
          <Range Index="6" Min="-1.0000000000000000e+00" Max="3.3000000000000000e+01"/>
          <Range Index="7" Min="0.0000000000000000e+00" Max="1.0000000000000000e+00"/>
          <Range Index="8" Min="0.0000000000000000e+00" Max="1.0000000000000000e+00"/>
          <Range Index="9" Min="0.0000000000000000e+00" Max="1.0000000000000000e+00"/>
          <Range Index="10" Min="-9.9900000000000000e+02" Max="6.6797897338867188e+01"/>
          <Range Index="11" Min="-9.9900000000000000e+02" Max="5.6202499389648438e+01"/>
          <Range Index="12" Min="-9.9900000000000000e+02" Max="3.5382099151611328e+01"/>
          <Range Index="13" Min="-9.9900000000000000e+02" Max="4.0669498443603516e+01"/>
          <Range Index="14" Min="-9.9900000000000000e+02" Max="4.0669498443603516e+01"/>
          <Range Index="15" Min="-9.9900000000000000e+02" Max="4.1855499267578125e+01"/>
          <Range Index="16" Min="0.0000000000000000e+00" Max="1.0000000000000000e+00"/>
          <Range Index="17" Min="-9.9900000000000000e+02" Max="4.7914838790893555e+00"/>
        </Ranges>
      </Class>
      <Class ClassIndex="1">
        <Ranges>
          <Range Index="0" Min="2.9333999633789062e+02" Max="4.9810025000000000e+06"/>
          <Range Index="1" Min="2.1471189498901367e+01" Max="9.0309343750000000e+05"/>
          <Range Index="2" Min="3.5214732633903623e-05" Max="2.9998731613159180e+00"/>
          <Range Index="3" Min="2.0000000000000000e+00" Max="4.3000000000000000e+01"/>
          <Range Index="4" Min="5.9223175048828125e-04" Max="9.9998229742050171e-01"/>
          <Range Index="5" Min="5.0275733576299331e-10" Max="8.9541412353515625e+01"/>
          <Range Index="6" Min="-1.0000000000000000e+00" Max="3.9000000000000000e+01"/>
          <Range Index="7" Min="0.0000000000000000e+00" Max="1.0000000000000000e+00"/>
          <Range Index="8" Min="0.0000000000000000e+00" Max="1.0000000000000000e+00"/>
          <Range Index="9" Min="0.0000000000000000e+00" Max="1.0000000000000000e+00"/>
          <Range Index="10" Min="-9.9900000000000000e+02" Max="1.1457520294189453e+02"/>
          <Range Index="11" Min="-9.9900000000000000e+02" Max="6.4817802429199219e+01"/>
          <Range Index="12" Min="-9.9900000000000000e+02" Max="8.0604698181152344e+01"/>
          <Range Index="13" Min="-9.9900000000000000e+02" Max="7.5442497253417969e+01"/>
          <Range Index="14" Min="-9.9900000000000000e+02" Max="6.1041801452636719e+01"/>
          <Range Index="15" Min="-9.9900000000000000e+02" Max="4.5470199584960938e+01"/>
          <Range Index="16" Min="0.0000000000000000e+00" Max="1.0000000000000000e+00"/>
          <Range Index="17" Min="-9.9900000000000000e+02" Max="4.7914838790893555e+00"/>
        </Ranges>
      </Class>
      <Class ClassIndex="2">
        <Ranges>
          <Range Index="0" Min="2.9333999633789062e+02" Max="4.9810025000000000e+06"/>
          <Range Index="1" Min="2.1471189498901367e+01" Max="9.0309343750000000e+05"/>
          <Range Index="2" Min="3.5214732633903623e-05" Max="2.9998731613159180e+00"/>
          <Range Index="3" Min="2.0000000000000000e+00" Max="4.3000000000000000e+01"/>
          <Range Index="4" Min="5.9223175048828125e-04" Max="9.9998229742050171e-01"/>
          <Range Index="5" Min="5.0275733576299331e-10" Max="8.9541412353515625e+01"/>
          <Range Index="6" Min="-1.0000000000000000e+00" Max="3.9000000000000000e+01"/>
          <Range Index="7" Min="0.0000000000000000e+00" Max="1.0000000000000000e+00"/>
          <Range Index="8" Min="0.0000000000000000e+00" Max="1.0000000000000000e+00"/>
          <Range Index="9" Min="0.0000000000000000e+00" Max="1.0000000000000000e+00"/>
          <Range Index="10" Min="-9.9900000000000000e+02" Max="1.1457520294189453e+02"/>
          <Range Index="11" Min="-9.9900000000000000e+02" Max="6.4817802429199219e+01"/>
          <Range Index="12" Min="-9.9900000000000000e+02" Max="8.0604698181152344e+01"/>
          <Range Index="13" Min="-9.9900000000000000e+02" Max="7.5442497253417969e+01"/>
          <Range Index="14" Min="-9.9900000000000000e+02" Max="6.1041801452636719e+01"/>
          <Range Index="15" Min="-9.9900000000000000e+02" Max="4.5470199584960938e+01"/>
          <Range Index="16" Min="0.0000000000000000e+00" Max="1.0000000000000000e+00"/>
          <Range Index="17" Min="-9.9900000000000000e+02" Max="4.7914838790893555e+00"/>
        </Ranges>
      </Class>
    </Transform>
  </Transformations>
  <MVAPdfs/>
  <Weights>
    <Layout NLayers="3">
      <Layer Index="0" NNeurons="19">
        <Neuron NSynapses="28">
          4.8023387133172063e-01 2.6094588381956303e+00 1.9272209248333894e+00 4.8083867769376942e+00 -1.4162254004548508e+01 -1.4585609793527472e+00 -1.4881186270828421e+00 1.9018111803005155e+00 7.2657968445070986e-01 -2.3261358684283207e+00 -1.0498025128849070e+01 1.6038018713043575e-01 -6.5660071174697288e-01 9.8712155925512324e-01 1.3645984178228723e-01 5.1988318402679043e+00 8.1337339840188960e-01 2.2771943812976705e+00 2.4527832411604933e-01 2.8896533868632117e+00 -2.6760886262977137e+00 3.6643128627436478e-01 2.1449243820143282e+00 -2.4291541210482725e-02 -1.0454596637841284e+01 -4.2476426363592923e+00 2.5486955131875568e+00 -2.6651333361760809e+01 
        </Neuron>
        <Neuron NSynapses="28">
          -9.5882217754674326e-01 4.4858073565805817e-01 1.8790333043788385e+00 1.6873935395794386e+00 -1.2430542000314663e+01 7.8293320450913562e-01 -8.2087720428903221e-01 -6.2221125579549663e-01 -1.4885102575757621e+00 4.0053924632641600e+00 -1.1137940430219226e+00 1.8098543745823179e+00 1.9873103936350545e+00 3.2672388196908342e+00 1.9521755233715399e+00 4.0446619625849021e+00 4.3271083516478166e+00 -1.2685354293223030e+00 8.5122896423203176e-01 1.2236460628077601e+00 -5.3870042280380581e-01 3.0952085536500973e+00 1.6428689100350116e+00 1.2619989770965496e+00 -8.4196069146766757e+00 8.7120808362971025e-01 -9.0657049484958119e-01 -3.7796724118337561e+00 
        </Neuron>
        <Neuron NSynapses="28">
          -1.5648857641056357e+00 -1.3731454265621770e+00 8.2973205842447195e-01 1.9070843255967438e+00 9.4716288188958608e-01 6.1343545794790610e-01 -6.8630488012552915e-01 6.0410336566634482e-01 3.4887864578492676e+00 -3.9589971936666393e+00 1.3610987058093837e+00 -1.2055501664504114e+00 1.4950315955786551e+00 -1.7156574236257942e+00 4.9651485780564192e-01 7.5591504439546509e-01 1.8961681034848576e+00 -5.0101312069998516e-01 1.3686355943150839e+00 -4.6876112027261434e-02 -2.0386351295616221e+00 -2.2524431294245488e+00 1.6328925803493737e+00 -4.3712719012839830e-02 -7.9187347834266841e-01 -1.7085438601842315e+00 1.1822999113673787e+00 -1.1992486382597267e+00 
        </Neuron>
        <Neuron NSynapses="28">
          -1.1616960877779046e+00 -4.5263655470270420e-01 2.1506299304451209e+00 -7.2436411107194953e-01 2.4920484136567955e+00 -1.1871602236964831e+00 2.3922327111675115e+00 1.7967549919642356e-01 2.7518797229440692e+00 -1.0943110689369733e+00 9.5094630885685416e-01 1.9856100758569599e+00 -1.2829171936905293e+00 -2.3117796796990668e+00 -1.0089775238329495e+00 2.2062393044737889e+00 -4.2996615849430944e+00 -4.0996584995059386e+00 5.7187499304296652e-01 3.6167671224263684e+00 -9.4999061047347499e-01 2.1888270081652204e+00 3.6051532079239368e-01 1.3787018339526971e+00 6.2600906515604116e-01 1.6404081308086673e+00 -1.5951545051992375e+00 2.2374422633154629e+00 
        </Neuron>
        <Neuron NSynapses="28">
          1.2840091084721011e-01 1.4345045043094720e+00 -1.5081767527950187e+00 1.6705249381643379e+00 -1.2654577465423942e+00 -7.8761031899704237e-01 7.6976496090829560e-01 -1.8069912967108077e+00 -3.5299570453306195e-01 -4.8972384897768055e+00 -5.8131444001964594e+00 1.8199601059704451e+00 1.0201399286383732e+00 -4.4698419837126574e-01 1.9252442365716518e+00 -9.9773725412351977e-01 -3.1936786203979963e+00 4.0499329299579570e+00 1.7067790887834342e-01 -1.6957760758920128e+00 5.1364934894041059e-01 8.2494532401198681e-02 2.8121887941800510e+00 9.7781744651375779e-01 5.5817436465628179e-01 -1.7938306266650290e+00 1.3527983120905189e+00 1.8623976659262638e+01 
        </Neuron>
        <Neuron NSynapses="28">
          1.4689514490023916e+00 4.4044466421972134e-01 -7.3755164572632936e-01 -5.3334423538887543e-01 -2.1659636960047268e+00 2.6700556430683022e+00 4.0911430549986152e+00 -1.4738264696154775e+00 8.6633803518637265e-01 1.6484148735406416e+00 -7.4095496874869460e-01 1.0860489609954005e+00 2.6657113197296152e+00 -1.9519780978096852e+00 -1.1255644539011103e+00 -4.9558688798181783e-01 -5.6133640927253738e+00 1.9450647548349103e+00 8.7486031112118090e-01 -2.0862915262059549e+00 2.3644538021107491e+00 3.9574615140006475e-01 -4.2690136075437209e-02 7.9750594931149410e-01 1.8539929316020087e+00 1.8152283838828549e+00 -2.5849196706009414e-01 3.9569288882459621e+00 
        </Neuron>
        <Neuron NSynapses="28">
          -1.0735002287201794e+00 -7.9807302951254044e-01 2.4079534304442363e+00 6.9842589226179819e-01 -1.2185753757381153e+00 1.8614740641394449e+00 3.9506383624475538e+00 -1.8575390602873154e+00 2.3332768031000866e+00 -1.5675859986430367e+00 -7.8866730471391450e-02 -1.2723796595309140e+00 -1.5658563889908652e+00 1.7738705338218319e+00 1.2624747234182305e+00 -1.7559915452201604e+00 3.2934489932377140e+00 -2.0762154178714760e+00 1.3114436798835025e-01 3.7807345913021182e+00 -6.0470108535132039e-01 -2.7107118434677524e-01 1.0607591562268505e-01 3.3119983182100095e+00 3.7798741015480219e-01 1.9121033645723127e+00 4.4755271274906083e-01 -3.6316561830628538e+00 
        </Neuron>
        <Neuron NSynapses="28">
          -2.5470207823235849e+00 1.2484771630276936e+00 -1.6182774378991699e-01 -1.0656390378377945e+00 4.4320139966772620e+00 -1.1958427845856073e-01 1.3806456007611785e+00 -2.1971337995914393e+00 6.5944040992967257e-01 2.5612177478250979e+00 9.5607976170539244e-01 -2.6075954996079903e-01 1.1936856470824124e+00 -2.1723202499306377e-01 -1.1622814919443085e-01 -2.4855037234819268e+00 -7.7342355233781630e+00 -1.3852772023756925e+00 1.7578490397045410e+00 1.5647193573099805e+00 1.1927885991059377e+00 -3.4271657247108051e-01 1.9389147686222230e+00 -1.8036832617189937e+00 -3.3408392346867827e-01 1.0667647813030467e+00 -1.9652044868102223e+00 9.9294162872477134e+00 
        </Neuron>
        <Neuron NSynapses="28">
          1.0488396557487851e+00 -1.0308930550297843e+00 2.3420917404117247e-01 1.7447822925413572e-01 -2.5619066825562848e+00 -6.6717986647016914e-01 9.8704154291188906e-01 1.9922621071346642e+00 1.9556606089302142e+00 -8.0616782913696200e-02 2.8791656099595127e+00 -1.1629925628039237e+00 5.1935166534485433e-01 -4.1199755752680900e-01 -9.6662776974545572e-01 9.4591563669462886e-01 -5.2320383318545955e+00 -7.9254515891386279e-01 -1.4523904713099991e+00 -7.7813181204228499e-01 -1.1919399180868273e+00 -8.8151670763051568e-02 -1.8198139883047839e+00 -2.9641429361623102e+00 2.5484272850721146e+00 -2.8652526737184775e-01 -5.1191467794123438e-02 -1.5757341218826604e+00 
        </Neuron>
        <Neuron NSynapses="28">
          -6.0184414344978754e-01 2.0685673316802387e+00 1.2205312201021528e+00 -4.5683492294322608e-01 -5.4345027778020627e-01 -9.8005148263919617e-01 1.1752360570991169e+00 -1.8532021929560536e+00 -5.9156060566867813e-02 5.9177295123586537e-01 3.0600666628416215e+00 3.3689833461173951e-01 1.1832488332025641e+00 1.3509480412979069e+00 -1.1789869854459525e+00 5.8106205049135085e-01 -4.7690623931507448e-01 -6.3353482237940995e-01 -1.0047597559021233e+00 9.9541188995267127e-01 1.9624874281421258e+00 9.7837558401885116e-01 -2.1022527512360237e-01 -1.0775756976055331e+00 5.6773607212547883e-01 4.0940183988317452e-01 1.5059072830156324e+00 -2.1019188608085576e-01 
        </Neuron>
        <Neuron NSynapses="28">
          4.0264204292699024e-01 -1.4568953688917588e-01 -1.9676295780370814e+00 -3.5530192388940429e-01 -3.0023411021490851e+00 -2.6265278978820206e+00 -1.5128783158601067e+00 2.9124425944904648e+00 -2.3148461709544521e+00 1.1641446983636838e+00 -8.5562520357389732e-02 1.0706835132499266e+00 -1.1121946984231115e+00 3.1283716084633082e+00 1.6622050669288861e+00 -3.3444722804532980e+00 2.9070991912932820e-01 1.2631235796632330e+00 -1.9169585696075171e+00 1.6081575949309788e+00 -3.0945963880497991e+00 -7.7186467522212010e-01 2.2510887739145797e+00 -5.2047051747467599e-01 -2.6746123508015018e+00 -2.5937929011736180e+00 -1.4235375970486073e+00 -8.1265053170551429e+00 
        </Neuron>
        <Neuron NSynapses="28">
          -5.1374951035226357e-01 -1.2260640357287795e+00 -1.8687579937151205e-01 -1.1078676960623037e+00 -2.0353320691483191e+01 2.7823750687657473e-01 -5.9999415667361278e-01 -1.8758851281170941e+00 2.1395222272736829e+00 -8.9522928218301843e+00 2.8805861495122915e+00 8.6572805217287718e-01 -4.5661577623265931e-01 2.6293555191910869e+00 -8.9271751432918904e+00 -1.8617041678908656e+01 2.0855907534031829e+01 5.4200299214438701e+00 1.3625686116379854e+00 4.6557683822655482e+00 -1.7483704304180416e+00 3.7012111553558302e-01 -2.9516546518474605e+00 4.0928698497372484e-01 -1.6622888874504170e+01 -7.3397200303935364e+00 -4.9494772418306028e-02 -1.6692855156328537e+01 
        </Neuron>
        <Neuron NSynapses="28">
          -4.8111684392632498e-01 1.2015922634740508e+00 9.1663312155433642e-03 5.0938924218650289e-02 -1.9662529809776481e+00 5.0009372063800162e-01 3.1404246082480691e+00 -1.3282009213310730e+00 -1.4910618076661855e-01 -9.6884550131932567e-01 1.0217921393406602e+00 -3.7555035469174561e-02 -4.9226133920748705e-01 -2.4067786005797007e+00 1.9580068515652422e+00 8.9861981383427967e+00 -4.1357270577788867e+00 -2.5513015866950284e-01 -9.0785591768628782e-01 -1.2484108674283396e+00 -1.2726993125910160e+00 9.8720121804568872e-01 -9.2909813965856722e-02 -1.2168753244577299e+00 1.3560924750938950e+00 -1.2360884528683680e+00 -1.8212064801733501e+00 4.2712557061043839e+00 
        </Neuron>
        <Neuron NSynapses="28">
          2.5602191777792556e-02 -1.2494083951023993e+00 -2.0619092391651783e+00 -3.3794412386799871e-01 -5.0375084753349135e+00 -1.1293648564896059e+00 1.8260837135254724e+00 -1.3074312127725565e+00 -1.7658848520478709e+00 1.9744782254124200e+00 2.0607348800004215e+00 2.3134424815767454e-01 -5.1944882174881513e-01 8.7959476117018376e-01 2.5959965184616420e+00 5.7887877976307074e+00 -2.8873027126585606e+00 -5.5006171160243955e-01 -1.7035782661025514e+00 9.5058313589420695e-01 6.8738442873458061e-01 -1.9940141287573192e-02 1.4066874071460658e+00 8.7415799362857527e-01 9.8603343196779791e-01 -1.0006573230184768e+00 9.9979339268246170e-01 3.9010567493543564e+00 
        </Neuron>
        <Neuron NSynapses="28">
          -3.0369394910607288e+00 -2.3408165037763659e-01 -1.3912357432367717e+00 1.1658784445424093e+00 -3.8601861938821243e+00 1.6481977036829980e+00 2.4176952257434570e+00 -3.2412201458948664e-01 1.0043769383007037e+00 2.7843619681393177e+00 1.7342104893509698e+00 -1.2711672726708316e+00 8.9050165214084598e-01 -2.7865793954492770e+00 1.8640169425135491e+00 8.4852064898966475e+00 -3.0160757706008940e+00 -8.4361587650060443e-01 -2.5329946396966150e-02 -1.4370519438822937e+00 -1.2015137240801610e-03 -1.9701372879213523e+00 6.3387515571333297e-01 -2.3873145916437419e-01 1.4017122691913233e+00 1.9366790443260398e+00 9.1378952985228878e-01 3.5593309135189251e+00 
        </Neuron>
        <Neuron NSynapses="28">
          -1.5394396795439769e+00 4.9643366798683503e-01 1.5423687780754729e+00 -1.5690155692213670e+00 -7.3245787534883142e+00 1.1683733341886317e-01 -8.5308087410109557e-01 -1.6976945487286128e+00 -2.6401747420381709e+00 2.2328451280891191e+00 1.5354375886043257e+00 -2.0464444770680839e+00 -2.8231286458207796e+00 -7.5105680410183129e-01 3.5553180557253174e+00 1.0229531099614732e+01 -2.3737828442971920e-01 -8.6699687976695561e-01 -1.9124959968169779e+00 -3.1261799926249934e-01 -2.1324162781730647e+00 -1.4288929849371799e+00 1.1791264519948493e-01 4.0228396923702881e-03 -1.9306970758127660e+00 2.1330771409616061e+00 4.6000222000376834e-01 4.0594365385526130e+00 
        </Neuron>
        <Neuron NSynapses="28">
          -7.0973625722008193e-01 -4.6760402302682108e-01 9.2799771702154854e-01 -2.4978326526653611e+00 7.1758816834724592e-01 2.4122264955995547e+00 1.9519569794150424e+00 -1.3827194199581155e-01 3.5257140971815520e-01 -1.0417163220072290e+00 1.7982647390688862e+00 1.9856529840693471e+00 3.1251086300682845e-01 -7.5785674801145186e-01 6.2167064998035082e-01 7.3677554008875434e-01 1.2880208242229005e+00 7.4351502910846090e-01 -9.3207298066791155e-01 -1.1296966533283737e+00 -2.0422656392050509e-01 2.4426460929735128e+00 -6.4758139474482479e-01 -1.4227261431002021e+00 -3.2538311495793053e+00 3.0058982299685382e+00 3.7425959337666181e-02 -8.5661348856297737e-01 
        </Neuron>
        <Neuron NSynapses="28">
          -3.4531065965977625e-01 -6.0012752629448018e-01 4.1792494389244084e-01 -4.5563100911749482e-01 -7.3901660903581501e-01 -2.7302822366372564e-01 2.0343969034389779e+00 2.1817978958024096e+00 -6.8329457601137955e-01 1.0091323227825599e+00 -1.0762587578246414e+00 -1.1101772794293387e+00 1.6345881035705954e+00 2.0505679188092308e-02 9.6644123011678296e-01 -6.1429757288871956e-01 -1.2993314696295517e+00 -1.5394101143119798e+00 -3.9601542149635960e-01 -1.3538721270915417e+00 4.3718597096013484e-01 2.7987163299599421e-01 6.6614605590907094e-01 -3.4494759293952565e-01 -3.7071292466745449e+00 2.5488327165472926e+00 1.5764914076522065e+00 9.8585961960865043e-01 
        </Neuron>
        <Neuron NSynapses="28">
          -9.1437462450620977e-01 -1.3742922304543088e+00 8.7021788910734577e-01 -7.3289543633195164e-01 5.5443116331713940e+00 -3.0348956358298285e+00 1.4542186465793692e+00 -1.1932477136870794e+00 4.6113699875117681e-01 -3.7990515932499722e+00 -6.4715150087714157e-01 -1.3037074893701031e+00 -1.6522424048757172e+00 -1.1841206989977889e-01 -1.7486203960636901e+00 -3.0586568155515175e+00 1.3793103866093737e+00 -2.4508976102645805e+00 1.3388195768586633e+00 -9.0351886103464907e-01 1.4131103102587483e+00 8.2895648164244606e-01 8.3355554423966738e-01 1.6534849803494558e+00 1.5735851948974684e+00 -4.8437508338024333e+00 -1.3614373961430419e+00 -1.1139348019887473e+01 
        </Neuron>
      </Layer>
      <Layer Index="1" NNeurons="29">
        <Neuron NSynapses="1">
          1.9059844858233341e+00 
        </Neuron>
        <Neuron NSynapses="1">
          -1.1774933287511606e+00 
        </Neuron>
        <Neuron NSynapses="1">
          9.6148881893297455e-01 
        </Neuron>
        <Neuron NSynapses="1">
          -2.9748240000931223e+00 
        </Neuron>
        <Neuron NSynapses="1">
          -4.5849000070018739e+00 
        </Neuron>
        <Neuron NSynapses="1">
          7.7432889283619588e-01 
        </Neuron>
        <Neuron NSynapses="1">
          -1.6281496620675062e+00 
        </Neuron>
        <Neuron NSynapses="1">
          -1.6721066645965044e+00 
        </Neuron>
        <Neuron NSynapses="1">
          1.7780934242942588e+00 
        </Neuron>
        <Neuron NSynapses="1">
          -1.1923191803384097e+00 
        </Neuron>
        <Neuron NSynapses="1">
          -4.8575900964218315e+00 
        </Neuron>
        <Neuron NSynapses="1">
          3.4745809234401559e-01 
        </Neuron>
        <Neuron NSynapses="1">
          1.4919415532629470e+00 
        </Neuron>
        <Neuron NSynapses="1">
          2.5359402974658103e+00 
        </Neuron>
        <Neuron NSynapses="1">
          -2.0512847487578960e+00 
        </Neuron>
        <Neuron NSynapses="1">
          -8.9607392705989053e+00 
        </Neuron>
        <Neuron NSynapses="1">
          4.1450962460405920e+00 
        </Neuron>
        <Neuron NSynapses="1">
          1.7818204985888073e+00 
        </Neuron>
        <Neuron NSynapses="1">
          7.0668086050118284e-01 
        </Neuron>
        <Neuron NSynapses="1">
          2.1854096926274535e+00 
        </Neuron>
        <Neuron NSynapses="1">
          -2.1245768527060052e+00 
        </Neuron>
        <Neuron NSynapses="1">
          2.0469535887788499e+00 
        </Neuron>
        <Neuron NSynapses="1">
          -1.8683896647255345e+00 
        </Neuron>
        <Neuron NSynapses="1">
          -2.6487261539768574e+00 
        </Neuron>
        <Neuron NSynapses="1">
          -4.7839026123230379e+00 
        </Neuron>
        <Neuron NSynapses="1">
          -2.4822770812665578e+00 
        </Neuron>
        <Neuron NSynapses="1">
          -6.9118719289597064e-01 
        </Neuron>
        <Neuron NSynapses="1">
          -3.3443653847694677e+00 
        </Neuron>
        <Neuron NSynapses="1">
          7.1720610818854649e+00 
        </Neuron>
      </Layer>
      <Layer Index="2" NNeurons="1">
        <Neuron NSynapses="0"/>
      </Layer>
    </Layout>
  </Weights>
</MethodSetup>
